unsigned char converted_model_tflite[] = {
  0x1c, 0x00, 0x00, 0x00, 0x54, 0x46, 0x4c, 0x33, 0x14, 0x00, 0x20, 0x00,
  0x1c, 0x00, 0x18, 0x00, 0x14, 0x00, 0x10, 0x00, 0x0c, 0x00, 0x00, 0x00,
  0x08, 0x00, 0x04, 0x00, 0x14, 0x00, 0x00, 0x00, 0x1c, 0x00, 0x00, 0x00,
  0x94, 0x00, 0x00, 0x00, 0xec, 0x00, 0x00, 0x00, 0x04, 0x07, 0x00, 0x00,
  0x14, 0x07, 0x00, 0x00, 0x24, 0x0c, 0x00, 0x00, 0x03, 0x00, 0x00, 0x00,
  0x01, 0x00, 0x00, 0x00, 0x10, 0x00, 0x00, 0x00, 0x00, 0x00, 0x0a, 0x00,
  0x10, 0x00, 0x0c, 0x00, 0x08, 0x00, 0x04, 0x00, 0x0a, 0x00, 0x00, 0x00,
  0x0c, 0x00, 0x00, 0x00, 0x1c, 0x00, 0x00, 0x00, 0x38, 0x00, 0x00, 0x00,
  0x0f, 0x00, 0x00, 0x00, 0x73, 0x65, 0x72, 0x76, 0x69, 0x6e, 0x67, 0x5f,
  0x64, 0x65, 0x66, 0x61, 0x75, 0x6c, 0x74, 0x00, 0x01, 0x00, 0x00, 0x00,
  0x04, 0x00, 0x00, 0x00, 0x94, 0xff, 0xff, 0xff, 0x09, 0x00, 0x00, 0x00,
  0x04, 0x00, 0x00, 0x00, 0x07, 0x00, 0x00, 0x00, 0x64, 0x65, 0x6e, 0x73,
  0x65, 0x5f, 0x38, 0x00, 0x01, 0x00, 0x00, 0x00, 0x04, 0x00, 0x00, 0x00,
  0x8a, 0xf9, 0xff, 0xff, 0x04, 0x00, 0x00, 0x00, 0x0d, 0x00, 0x00, 0x00,
  0x64, 0x65, 0x6e, 0x73, 0x65, 0x5f, 0x36, 0x5f, 0x69, 0x6e, 0x70, 0x75,
  0x74, 0x00, 0x00, 0x00, 0x02, 0x00, 0x00, 0x00, 0x34, 0x00, 0x00, 0x00,
  0x04, 0x00, 0x00, 0x00, 0xdc, 0xff, 0xff, 0xff, 0x0c, 0x00, 0x00, 0x00,
  0x04, 0x00, 0x00, 0x00, 0x13, 0x00, 0x00, 0x00, 0x43, 0x4f, 0x4e, 0x56,
  0x45, 0x52, 0x53, 0x49, 0x4f, 0x4e, 0x5f, 0x4d, 0x45, 0x54, 0x41, 0x44,
  0x41, 0x54, 0x41, 0x00, 0x08, 0x00, 0x0c, 0x00, 0x08, 0x00, 0x04, 0x00,
  0x08, 0x00, 0x00, 0x00, 0x0b, 0x00, 0x00, 0x00, 0x04, 0x00, 0x00, 0x00,
  0x13, 0x00, 0x00, 0x00, 0x6d, 0x69, 0x6e, 0x5f, 0x72, 0x75, 0x6e, 0x74,
  0x69, 0x6d, 0x65, 0x5f, 0x76, 0x65, 0x72, 0x73, 0x69, 0x6f, 0x6e, 0x00,
  0x0d, 0x00, 0x00, 0x00, 0x14, 0x06, 0x00, 0x00, 0x0c, 0x06, 0x00, 0x00,
  0xf8, 0x05, 0x00, 0x00, 0xa0, 0x05, 0x00, 0x00, 0x50, 0x05, 0x00, 0x00,
  0x00, 0x05, 0x00, 0x00, 0xf0, 0x00, 0x00, 0x00, 0xa0, 0x00, 0x00, 0x00,
  0x98, 0x00, 0x00, 0x00, 0x90, 0x00, 0x00, 0x00, 0x88, 0x00, 0x00, 0x00,
  0x68, 0x00, 0x00, 0x00, 0x04, 0x00, 0x00, 0x00, 0x3a, 0xfa, 0xff, 0xff,
  0x04, 0x00, 0x00, 0x00, 0x54, 0x00, 0x00, 0x00, 0x0c, 0x00, 0x00, 0x00,
  0x08, 0x00, 0x0e, 0x00, 0x08, 0x00, 0x04, 0x00, 0x08, 0x00, 0x00, 0x00,
  0x10, 0x00, 0x00, 0x00, 0x24, 0x00, 0x00, 0x00, 0x00, 0x00, 0x06, 0x00,
  0x08, 0x00, 0x04, 0x00, 0x06, 0x00, 0x00, 0x00, 0x04, 0x00, 0x00, 0x00,
  0x00, 0x00, 0x00, 0x00, 0x00, 0x00, 0x0a, 0x00, 0x10, 0x00, 0x0c, 0x00,
  0x08, 0x00, 0x04, 0x00, 0x0a, 0x00, 0x00, 0x00, 0x02, 0x00, 0x00, 0x00,
  0x02, 0x00, 0x00, 0x00, 0x04, 0x00, 0x00, 0x00, 0x06, 0x00, 0x00, 0x00,
  0x32, 0x2e, 0x31, 0x34, 0x2e, 0x30, 0x00, 0x00, 0x9a, 0xfa, 0xff, 0xff,
  0x04, 0x00, 0x00, 0x00, 0x10, 0x00, 0x00, 0x00, 0x31, 0x2e, 0x35, 0x2e,
  0x30, 0x00, 0x00, 0x00, 0x00, 0x00, 0x00, 0x00, 0x00, 0x00, 0x00, 0x00,
  0xa8, 0xf5, 0xff, 0xff, 0xac, 0xf5, 0xff, 0xff, 0xb0, 0xf5, 0xff, 0xff,
  0xc2, 0xfa, 0xff, 0xff, 0x04, 0x00, 0x00, 0x00, 0x40, 0x00, 0x00, 0x00,
  0x8a, 0x01, 0xe3, 0xbe, 0xb7, 0xd9, 0x8b, 0x3f, 0xea, 0xd6, 0x98, 0x3e,
  0x93, 0xae, 0x9c, 0xbe, 0x32, 0xaf, 0xac, 0x3c, 0xe7, 0x17, 0x4a, 0xbf,
  0x2d, 0xc4, 0x69, 0xbf, 0x88, 0x80, 0x18, 0x3e, 0xa0, 0x8a, 0x46, 0x3d,
  0x66, 0x9d, 0xa5, 0x3f, 0x08, 0x25, 0x30, 0xbf, 0xd0, 0x18, 0x23, 0xbd,
  0x48, 0x9d, 0xef, 0xbd, 0x04, 0xe1, 0x9b, 0x3e, 0x84, 0xf0, 0x36, 0xbe,
  0x4e, 0x19, 0x08, 0x3e, 0x0e, 0xfb, 0xff, 0xff, 0x04, 0x00, 0x00, 0x00,
  0x00, 0x04, 0x00, 0x00, 0xec, 0x3a, 0x9e, 0x3e, 0xb0, 0x27, 0x8e, 0xbc,
  0xbe, 0x7f, 0xdd, 0xbe, 0xa1, 0x98, 0x5b, 0xbe, 0x04, 0x58, 0xdd, 0xbe,
  0x6a, 0x40, 0xac, 0xbe, 0x7a, 0xa5, 0x22, 0x3e, 0x04, 0x6a, 0x1b, 0xbe,
  0xdb, 0xc8, 0x22, 0xbd, 0x90, 0xbb, 0x84, 0xbc, 0x93, 0x7f, 0xaf, 0xbe,
  0xe0, 0x05, 0x9e, 0xbe, 0xc2, 0x70, 0x07, 0x3e, 0xde, 0x2d, 0xc9, 0x3c,
  0x12, 0xae, 0x46, 0xbe, 0xb5, 0xa1, 0xdb, 0x3d, 0xe5, 0x82, 0xb3, 0x3e,
  0xb1, 0xa5, 0xbf, 0xbe, 0x54, 0xee, 0xea, 0x3d, 0x03, 0xb4, 0xb3, 0x3e,
  0x00, 0x14, 0xa3, 0xbd, 0x4a, 0xcc, 0x79, 0xbe, 0x95, 0xb5, 0xa9, 0x3e,
  0xb7, 0xad, 0x27, 0x3e, 0x96, 0x92, 0x2a, 0x3f, 0xe4, 0xcd, 0x9f, 0xbe,
  0xe0, 0x26, 0x2a, 0xbf, 0xae, 0x8f, 0xa1, 0xbe, 0x42, 0xd6, 0x2d, 0xbe,
  0xe5, 0xaf, 0xdc, 0x3e, 0x0e, 0xd8, 0x0f, 0x3f, 0xd2, 0xca, 0xe8, 0xbe,
  0x04, 0x24, 0x2d, 0x3e, 0x26, 0xd8, 0x0d, 0xbe, 0x47, 0x9a, 0xc0, 0xbe,
  0x85, 0x4b, 0x9e, 0xbe, 0x8a, 0x0e, 0x66, 0x3e, 0x38, 0xa1, 0x23, 0xbd,
  0x13, 0x0c, 0xab, 0x3e, 0xad, 0x93, 0x68, 0x3e, 0xb5, 0x17, 0x9f, 0xbe,
  0x6b, 0x02, 0xb0, 0x3e, 0xf5, 0x98, 0xdc, 0x3d, 0x40, 0x82, 0xc8, 0x3b,
  0xb8, 0xdc, 0x8a, 0xbe, 0x2f, 0x8c, 0x28, 0x3e, 0xe5, 0x6a, 0x1c, 0x3e,
  0xcb, 0xc1, 0x88, 0xbe, 0xb5, 0x48, 0xd4, 0x3e, 0xda, 0xe4, 0x7a, 0x3e,
  0xf0, 0x47, 0x9f, 0x3c, 0x93, 0xf2, 0x9c, 0x3e, 0x4c, 0x45, 0xc2, 0x3d,
  0xc0, 0x86, 0xe0, 0xbd, 0x64, 0x5c, 0x3a, 0xbe, 0x60, 0xd6, 0x3c, 0x3c,
  0x2c, 0x36, 0x1d, 0xbe, 0xdf, 0x36, 0xc0, 0x3e, 0x1f, 0x59, 0x94, 0xbe,
  0xaf, 0xbf, 0xa8, 0x3e, 0xa0, 0xa2, 0xc6, 0xbc, 0x54, 0x17, 0x02, 0xbe,
  0x3a, 0xbb, 0x39, 0x3e, 0x0d, 0x24, 0xdd, 0xbe, 0x26, 0x21, 0xfe, 0x3e,
  0x3e, 0x4a, 0x83, 0xbe, 0x80, 0xf2, 0xd6, 0xbb, 0x66, 0x74, 0xa8, 0xbe,
  0xcd, 0x87, 0xd7, 0x3e, 0xbb, 0x60, 0x80, 0x3e, 0xfe, 0x87, 0x37, 0x3e,
  0xda, 0x02, 0x93, 0x3c, 0xab, 0xe0, 0xcf, 0x3d, 0x82, 0x11, 0x8e, 0xbe,
  0xae, 0x4e, 0x9e, 0xbd, 0x43, 0x62, 0xaf, 0xbe, 0xc0, 0x0d, 0xad, 0xbc,
  0xa1, 0x44, 0xc2, 0x3e, 0xac, 0xd3, 0xdf, 0x3e, 0x29, 0xb0, 0x66, 0x3d,
  0xc7, 0x92, 0x0b, 0xbf, 0x40, 0x08, 0xc1, 0xbc, 0xad, 0x53, 0xad, 0x3e,
  0x32, 0x2e, 0x51, 0x3e, 0xcc, 0x05, 0x15, 0xbe, 0xc0, 0x02, 0xaa, 0x3c,
  0x88, 0xa4, 0x0f, 0xbd, 0x11, 0xa1, 0xd5, 0x3d, 0x03, 0x4f, 0x0a, 0xbf,
  0xa6, 0x4f, 0xbb, 0xbe, 0xf4, 0x2c, 0x95, 0x3e, 0xb9, 0x19, 0xd4, 0x3e,
  0x97, 0x10, 0x4d, 0xbe, 0x22, 0x10, 0x68, 0x3e, 0xd7, 0xbf, 0xb4, 0xbd,
  0x4c, 0x3b, 0x92, 0xbd, 0x71, 0x27, 0x46, 0xbf, 0x80, 0xde, 0x81, 0x3c,
  0x1f, 0x5e, 0x9d, 0xbe, 0x4e, 0x05, 0x23, 0x3e, 0xff, 0x7b, 0xce, 0xbe,
  0xaa, 0xaa, 0x99, 0xbe, 0x7f, 0x0b, 0xac, 0x3e, 0x12, 0x77, 0xb7, 0xbe,
  0xbd, 0x1c, 0xb1, 0xbe, 0xe6, 0xb9, 0x1c, 0xbe, 0xcb, 0x7d, 0x12, 0x3f,
  0xaa, 0xb2, 0x6f, 0x3e, 0x85, 0xfb, 0xc1, 0x3e, 0x62, 0x9b, 0xa8, 0xbe,
  0x6a, 0xaf, 0xa1, 0xbe, 0xb2, 0xe3, 0xd8, 0xbe, 0x88, 0xea, 0x85, 0xbd,
  0x20, 0xb7, 0x5f, 0xbe, 0xc0, 0x9a, 0xb8, 0xbe, 0xd0, 0xaf, 0xc4, 0xbc,
  0x55, 0x7a, 0x97, 0x3e, 0x33, 0x26, 0xb0, 0x3e, 0x71, 0x66, 0x8a, 0x3e,
  0xf3, 0xdd, 0x99, 0x3e, 0x3a, 0xc1, 0xaa, 0xbe, 0xb4, 0x54, 0xd5, 0x3d,
  0xcf, 0x86, 0x80, 0xbe, 0x95, 0x89, 0xaf, 0x3e, 0x00, 0x17, 0x7d, 0xbb,
  0xa0, 0x2a, 0x3d, 0xbd, 0x5e, 0xe4, 0x9d, 0xbe, 0x66, 0x25, 0x84, 0xbe,
  0xc0, 0xd4, 0x31, 0xbc, 0x57, 0x34, 0xb3, 0x3e, 0x63, 0xbb, 0xa3, 0x3e,
  0xfc, 0x0b, 0xb2, 0x3d, 0x9a, 0xe1, 0xae, 0xbe, 0x94, 0x3d, 0xec, 0x3d,
  0x63, 0xa2, 0xa5, 0x3e, 0xcc, 0xcb, 0x73, 0xbe, 0x52, 0x12, 0x6e, 0xbe,
  0xcc, 0x88, 0xb6, 0xbe, 0x46, 0xeb, 0xba, 0xbe, 0x2a, 0x69, 0x4e, 0x3e,
  0x99, 0xbc, 0xa9, 0x3e, 0xe0, 0x79, 0x3e, 0xbd, 0xb2, 0x67, 0x52, 0x3e,
  0xfa, 0x92, 0x00, 0xbe, 0xb7, 0xe3, 0x22, 0xbb, 0x60, 0xec, 0x19, 0x3d,
  0x0c, 0x11, 0xb2, 0xbe, 0x14, 0xf7, 0xaa, 0xbd, 0x11, 0xee, 0xb3, 0x3e,
  0xd0, 0x9a, 0x00, 0x3d, 0x56, 0xfa, 0x41, 0x3e, 0x5b, 0x9f, 0x10, 0xbf,
  0x2d, 0x63, 0x33, 0xbe, 0xd8, 0x55, 0x61, 0xbe, 0x11, 0x6f, 0x19, 0x3f,
  0x73, 0x84, 0x99, 0x3e, 0xe0, 0x81, 0x77, 0xbc, 0x84, 0x66, 0x21, 0x3e,
  0xb1, 0xf6, 0x49, 0xbf, 0xf6, 0x88, 0x0b, 0x3e, 0x84, 0x64, 0x46, 0xbf,
  0x02, 0x42, 0x99, 0xbe, 0x68, 0x01, 0xb3, 0xbe, 0xa6, 0x65, 0x23, 0xbe,
  0xb1, 0xa3, 0xca, 0x3e, 0x97, 0x67, 0xac, 0xbe, 0xd8, 0x57, 0x96, 0xbe,
  0x15, 0x11, 0xce, 0xbc, 0x16, 0x45, 0x21, 0xbd, 0x1a, 0x02, 0xb6, 0xbe,
  0x37, 0x3f, 0xe0, 0x3e, 0x9c, 0x28, 0xb3, 0xbe, 0xc0, 0xcb, 0xb1, 0xbe,
  0xe1, 0x1c, 0xa3, 0xbe, 0x25, 0xe4, 0x51, 0xbe, 0x12, 0x5f, 0xff, 0x3d,
  0x68, 0x00, 0xd1, 0xbd, 0xc9, 0x8f, 0x91, 0x3e, 0xd0, 0x5b, 0x11, 0xbd,
  0x11, 0x81, 0xb3, 0x3e, 0x00, 0xa9, 0x0b, 0xbb, 0x40, 0xfe, 0xdf, 0x3b,
  0x9f, 0x08, 0xb8, 0x3e, 0x50, 0x7f, 0x88, 0x3d, 0x13, 0x9a, 0x9a, 0x3e,
  0x00, 0x92, 0x8c, 0xbd, 0x53, 0xc0, 0xd7, 0xbe, 0x28, 0xea, 0x78, 0x3d,
  0x27, 0x01, 0x48, 0xbe, 0xad, 0x78, 0xb3, 0x3e, 0xa8, 0xd5, 0x20, 0x3d,
  0xcc, 0x10, 0x21, 0xbe, 0x03, 0x42, 0xa2, 0x3e, 0x3c, 0x02, 0x91, 0xbd,
  0xd0, 0x2c, 0xd9, 0xbe, 0x8d, 0x22, 0x95, 0x3e, 0xc8, 0xf4, 0xee, 0xbd,
  0xe3, 0xd1, 0xb0, 0x3e, 0x7e, 0xac, 0x58, 0xbe, 0x48, 0xb3, 0xbf, 0x3d,
  0x5d, 0x91, 0xb0, 0x3e, 0xd4, 0x24, 0xb7, 0xbd, 0x01, 0xce, 0x15, 0x3f,
  0x62, 0x5d, 0x96, 0xbe, 0xba, 0x60, 0x15, 0x3e, 0x79, 0x14, 0xb6, 0x3e,
  0xe2, 0x98, 0x19, 0xbe, 0x75, 0xad, 0x81, 0xbd, 0xec, 0x65, 0xc0, 0xbe,
  0x84, 0xdf, 0x99, 0xbe, 0xa0, 0xfc, 0xc8, 0xbd, 0xc6, 0xe7, 0xc3, 0xbe,
  0x10, 0xe8, 0xb8, 0x3c, 0x30, 0xc7, 0x87, 0xbe, 0xd1, 0x45, 0xb2, 0x3e,
  0x50, 0x01, 0x23, 0x3d, 0xb2, 0x7a, 0x78, 0xbe, 0xe1, 0x21, 0x84, 0x3e,
  0x42, 0x35, 0x09, 0x3e, 0x48, 0xcb, 0x2c, 0x3d, 0x44, 0xd4, 0xa4, 0x3d,
  0x23, 0x4c, 0x26, 0x3e, 0x0a, 0x91, 0x0f, 0x3e, 0x05, 0x02, 0x4c, 0xbe,
  0xba, 0x58, 0x95, 0x3e, 0x2b, 0xa9, 0xd9, 0xbe, 0x38, 0x6d, 0x3e, 0x3d,
  0x7b, 0x94, 0x81, 0xbe, 0x06, 0xb6, 0xc7, 0xbe, 0xc8, 0x6e, 0x30, 0x3d,
  0x4f, 0x48, 0x83, 0x3e, 0x36, 0xbf, 0xe0, 0x3d, 0x4e, 0xb4, 0x83, 0xbb,
  0x1f, 0x61, 0xd8, 0xbe, 0x9a, 0xb2, 0x2d, 0x3e, 0x9b, 0x22, 0x92, 0xbe,
  0x3c, 0x5c, 0xaa, 0x3d, 0x3e, 0x7b, 0x2e, 0xbe, 0x18, 0xb1, 0x05, 0xbf,
  0xab, 0x45, 0x0a, 0x3f, 0xfa, 0x2c, 0xb7, 0x3d, 0xdd, 0xc6, 0x50, 0xbe,
  0x1c, 0xe9, 0x9e, 0xbe, 0x57, 0xfd, 0xa9, 0x3e, 0xaa, 0x1e, 0x94, 0xbe,
  0x16, 0x83, 0x14, 0x3e, 0x61, 0xf5, 0xa2, 0x3e, 0xde, 0x01, 0x92, 0x3e,
  0x93, 0x1f, 0xba, 0xbe, 0xb9, 0xb5, 0x75, 0xbe, 0x91, 0xe3, 0x25, 0xbe,
  0x11, 0xdb, 0xcb, 0x3e, 0x75, 0x01, 0xc4, 0x3e, 0x65, 0xd0, 0xa8, 0x3e,
  0x33, 0xdc, 0x16, 0xbe, 0xc2, 0xb1, 0xa1, 0xbd, 0x1a, 0xff, 0xff, 0xff,
  0x04, 0x00, 0x00, 0x00, 0x40, 0x00, 0x00, 0x00, 0x5f, 0x1d, 0x06, 0x3f,
  0x1a, 0x9a, 0x9b, 0xbe, 0xc5, 0xc9, 0xf7, 0xbe, 0x40, 0x51, 0x58, 0xbd,
  0x17, 0x38, 0xb7, 0xbe, 0x40, 0x26, 0xf0, 0xbe, 0x92, 0x02, 0xab, 0xbe,
  0x7b, 0x08, 0x03, 0x3f, 0x5d, 0xd4, 0xdc, 0x3e, 0x8e, 0xf3, 0xfd, 0xbe,
  0x8c, 0x8b, 0x39, 0x3e, 0x3e, 0x45, 0xc9, 0xbe, 0x07, 0xd6, 0x8c, 0xbe,
  0xb2, 0xd9, 0x81, 0x3e, 0x69, 0x59, 0x22, 0x3f, 0x72, 0xc8, 0xb3, 0x3e,
  0x66, 0xff, 0xff, 0xff, 0x04, 0x00, 0x00, 0x00, 0x40, 0x00, 0x00, 0x00,
  0x64, 0x3d, 0x6b, 0xbb, 0x00, 0x00, 0x00, 0x00, 0x00, 0x00, 0x00, 0x00,
  0x00, 0x00, 0x00, 0x00, 0x00, 0x00, 0x00, 0x00, 0x00, 0x00, 0x00, 0x00,
  0x00, 0x00, 0x00, 0x00, 0xe9, 0x02, 0x25, 0xbf, 0x54, 0xe1, 0x36, 0xbf,
  0x00, 0x00, 0x00, 0x00, 0xa7, 0xa7, 0x9b, 0x3f, 0x00, 0x00, 0x00, 0x00,
  0x00, 0x00, 0x00, 0x00, 0x2d, 0x32, 0xae, 0xbe, 0x0c, 0x31, 0x83, 0xbf,
  0x16, 0xc7, 0xc6, 0x3f, 0xb2, 0xff, 0xff, 0xff, 0x04, 0x00, 0x00, 0x00,
  0x40, 0x00, 0x00, 0x00, 0x7a, 0xe6, 0xf9, 0xbc, 0x0e, 0xe2, 0x70, 0xbf,
  0x62, 0x08, 0xa9, 0xbe, 0x00, 0x00, 0x00, 0x00, 0xe1, 0x23, 0xaf, 0x3d,
  0x9b, 0x3f, 0x90, 0x3e, 0x3a, 0x9f, 0x9b, 0x3e, 0x00, 0x00, 0x00, 0x00,
  0x00, 0x00, 0x00, 0x00, 0xd5, 0xf9, 0x1d, 0x3f, 0xfa, 0x05, 0x18, 0x3e,
  0x00, 0x00, 0x00, 0x00, 0xb0, 0x48, 0x97, 0x3e, 0x06, 0x87, 0x55, 0xbd,
  0xd4, 0x9c, 0xc6, 0x3e, 0x2e, 0x82, 0x22, 0xbd, 0x00, 0x00, 0x06, 0x00,
  0x08, 0x00, 0x04, 0x00, 0x06, 0x00, 0x00, 0x00, 0x04, 0x00, 0x00, 0x00,
  0x04, 0x00, 0x00, 0x00, 0x6b, 0xe8, 0x9d, 0xbe, 0x08, 0xfb, 0xff, 0xff,
  0x0c, 0xfb, 0xff, 0xff, 0x0f, 0x00, 0x00, 0x00, 0x4d, 0x4c, 0x49, 0x52,
  0x20, 0x43, 0x6f, 0x6e, 0x76, 0x65, 0x72, 0x74, 0x65, 0x64, 0x2e, 0x00,
  0x01, 0x00, 0x00, 0x00, 0x14, 0x00, 0x00, 0x00, 0x00, 0x00, 0x0e, 0x00,
  0x18, 0x00, 0x14, 0x00, 0x10, 0x00, 0x0c, 0x00, 0x08, 0x00, 0x04, 0x00,
  0x0e, 0x00, 0x00, 0x00, 0x14, 0x00, 0x00, 0x00, 0x1c, 0x00, 0x00, 0x00,
  0xd8, 0x00, 0x00, 0x00, 0xdc, 0x00, 0x00, 0x00, 0xe0, 0x00, 0x00, 0x00,
  0x04, 0x00, 0x00, 0x00, 0x6d, 0x61, 0x69, 0x6e, 0x00, 0x00, 0x00, 0x00,
  0x03, 0x00, 0x00, 0x00, 0x80, 0x00, 0x00, 0x00, 0x38, 0x00, 0x00, 0x00,
  0x04, 0x00, 0x00, 0x00, 0x9a, 0xff, 0xff, 0xff, 0x10, 0x00, 0x00, 0x00,
  0x00, 0x00, 0x00, 0x08, 0x0c, 0x00, 0x00, 0x00, 0x10, 0x00, 0x00, 0x00,
  0x84, 0xfb, 0xff, 0xff, 0x01, 0x00, 0x00, 0x00, 0x09, 0x00, 0x00, 0x00,
  0x03, 0x00, 0x00, 0x00, 0x08, 0x00, 0x00, 0x00, 0x06, 0x00, 0x00, 0x00,
  0x01, 0x00, 0x00, 0x00, 0xca, 0xff, 0xff, 0xff, 0x10, 0x00, 0x00, 0x00,
  0x00, 0x00, 0x00, 0x08, 0x10, 0x00, 0x00, 0x00, 0x14, 0x00, 0x00, 0x00,
  0xba, 0xff, 0xff, 0xff, 0x00, 0x00, 0x00, 0x01, 0x01, 0x00, 0x00, 0x00,
  0x08, 0x00, 0x00, 0x00, 0x03, 0x00, 0x00, 0x00, 0x07, 0x00, 0x00, 0x00,
  0x05, 0x00, 0x00, 0x00, 0x02, 0x00, 0x00, 0x00, 0x00, 0x00, 0x0e, 0x00,
  0x16, 0x00, 0x00, 0x00, 0x10, 0x00, 0x0c, 0x00, 0x0b, 0x00, 0x04, 0x00,
  0x0e, 0x00, 0x00, 0x00, 0x18, 0x00, 0x00, 0x00, 0x00, 0x00, 0x00, 0x08,
  0x18, 0x00, 0x00, 0x00, 0x1c, 0x00, 0x00, 0x00, 0x00, 0x00, 0x06, 0x00,
  0x08, 0x00, 0x07, 0x00, 0x06, 0x00, 0x00, 0x00, 0x00, 0x00, 0x00, 0x01,
  0x01, 0x00, 0x00, 0x00, 0x07, 0x00, 0x00, 0x00, 0x03, 0x00, 0x00, 0x00,
  0x00, 0x00, 0x00, 0x00, 0x04, 0x00, 0x00, 0x00, 0x03, 0x00, 0x00, 0x00,
  0x01, 0x00, 0x00, 0x00, 0x09, 0x00, 0x00, 0x00, 0x01, 0x00, 0x00, 0x00,
  0x00, 0x00, 0x00, 0x00, 0x0a, 0x00, 0x00, 0x00, 0xa4, 0x03, 0x00, 0x00,
  0x34, 0x03, 0x00, 0x00, 0xc4, 0x02, 0x00, 0x00, 0x6c, 0x02, 0x00, 0x00,
  0x20, 0x02, 0x00, 0x00, 0xd4, 0x01, 0x00, 0x00, 0x88, 0x01, 0x00, 0x00,
  0xf4, 0x00, 0x00, 0x00, 0x60, 0x00, 0x00, 0x00, 0x04, 0x00, 0x00, 0x00,
  0x9a, 0xfc, 0xff, 0xff, 0x00, 0x00, 0x00, 0x01, 0x14, 0x00, 0x00, 0x00,
  0x1c, 0x00, 0x00, 0x00, 0x1c, 0x00, 0x00, 0x00, 0x0a, 0x00, 0x00, 0x00,
  0x34, 0x00, 0x00, 0x00, 0x02, 0x00, 0x00, 0x00, 0xff, 0xff, 0xff, 0xff,
  0x01, 0x00, 0x00, 0x00, 0x84, 0xfc, 0xff, 0xff, 0x19, 0x00, 0x00, 0x00,
  0x53, 0x74, 0x61, 0x74, 0x65, 0x66, 0x75, 0x6c, 0x50, 0x61, 0x72, 0x74,
  0x69, 0x74, 0x69, 0x6f, 0x6e, 0x65, 0x64, 0x43, 0x61, 0x6c, 0x6c, 0x3a,
  0x30, 0x00, 0x00, 0x00, 0x02, 0x00, 0x00, 0x00, 0x01, 0x00, 0x00, 0x00,
  0x01, 0x00, 0x00, 0x00, 0xf2, 0xfc, 0xff, 0xff, 0x00, 0x00, 0x00, 0x01,
  0x14, 0x00, 0x00, 0x00, 0x1c, 0x00, 0x00, 0x00, 0x1c, 0x00, 0x00, 0x00,
  0x09, 0x00, 0x00, 0x00, 0x6c, 0x00, 0x00, 0x00, 0x02, 0x00, 0x00, 0x00,
  0xff, 0xff, 0xff, 0xff, 0x10, 0x00, 0x00, 0x00, 0xdc, 0xfc, 0xff, 0xff,
  0x52, 0x00, 0x00, 0x00, 0x73, 0x65, 0x71, 0x75, 0x65, 0x6e, 0x74, 0x69,
  0x61, 0x6c, 0x5f, 0x32, 0x2f, 0x64, 0x65, 0x6e, 0x73, 0x65, 0x5f, 0x37,
  0x2f, 0x4d, 0x61, 0x74, 0x4d, 0x75, 0x6c, 0x3b, 0x73, 0x65, 0x71, 0x75,
  0x65, 0x6e, 0x74, 0x69, 0x61, 0x6c, 0x5f, 0x32, 0x2f, 0x64, 0x65, 0x6e,
  0x73, 0x65, 0x5f, 0x37, 0x2f, 0x52, 0x65, 0x6c, 0x75, 0x3b, 0x73, 0x65,
  0x71, 0x75, 0x65, 0x6e, 0x74, 0x69, 0x61, 0x6c, 0x5f, 0x32, 0x2f, 0x64,
  0x65, 0x6e, 0x73, 0x65, 0x5f, 0x37, 0x2f, 0x42, 0x69, 0x61, 0x73, 0x41,
  0x64, 0x64, 0x00, 0x00, 0x02, 0x00, 0x00, 0x00, 0x01, 0x00, 0x00, 0x00,
  0x10, 0x00, 0x00, 0x00, 0x82, 0xfd, 0xff, 0xff, 0x00, 0x00, 0x00, 0x01,
  0x14, 0x00, 0x00, 0x00, 0x1c, 0x00, 0x00, 0x00, 0x1c, 0x00, 0x00, 0x00,
  0x08, 0x00, 0x00, 0x00, 0x6c, 0x00, 0x00, 0x00, 0x02, 0x00, 0x00, 0x00,
  0xff, 0xff, 0xff, 0xff, 0x10, 0x00, 0x00, 0x00, 0x6c, 0xfd, 0xff, 0xff,
  0x52, 0x00, 0x00, 0x00, 0x73, 0x65, 0x71, 0x75, 0x65, 0x6e, 0x74, 0x69,
  0x61, 0x6c, 0x5f, 0x32, 0x2f, 0x64, 0x65, 0x6e, 0x73, 0x65, 0x5f, 0x36,
  0x2f, 0x4d, 0x61, 0x74, 0x4d, 0x75, 0x6c, 0x3b, 0x73, 0x65, 0x71, 0x75,
  0x65, 0x6e, 0x74, 0x69, 0x61, 0x6c, 0x5f, 0x32, 0x2f, 0x64, 0x65, 0x6e,
  0x73, 0x65, 0x5f, 0x36, 0x2f, 0x52, 0x65, 0x6c, 0x75, 0x3b, 0x73, 0x65,
  0x71, 0x75, 0x65, 0x6e, 0x74, 0x69, 0x61, 0x6c, 0x5f, 0x32, 0x2f, 0x64,
  0x65, 0x6e, 0x73, 0x65, 0x5f, 0x36, 0x2f, 0x42, 0x69, 0x61, 0x73, 0x41,
  0x64, 0x64, 0x00, 0x00, 0x02, 0x00, 0x00, 0x00, 0x01, 0x00, 0x00, 0x00,
  0x10, 0x00, 0x00, 0x00, 0x7e, 0xfe, 0xff, 0xff, 0x00, 0x00, 0x00, 0x01,
  0x10, 0x00, 0x00, 0x00, 0x10, 0x00, 0x00, 0x00, 0x07, 0x00, 0x00, 0x00,
  0x28, 0x00, 0x00, 0x00, 0xec, 0xfd, 0xff, 0xff, 0x1b, 0x00, 0x00, 0x00,
  0x73, 0x65, 0x71, 0x75, 0x65, 0x6e, 0x74, 0x69, 0x61, 0x6c, 0x5f, 0x32,
  0x2f, 0x64, 0x65, 0x6e, 0x73, 0x65, 0x5f, 0x38, 0x2f, 0x4d, 0x61, 0x74,
  0x4d, 0x75, 0x6c, 0x00, 0x02, 0x00, 0x00, 0x00, 0x01, 0x00, 0x00, 0x00,
  0x10, 0x00, 0x00, 0x00, 0xc6, 0xfe, 0xff, 0xff, 0x00, 0x00, 0x00, 0x01,
  0x10, 0x00, 0x00, 0x00, 0x10, 0x00, 0x00, 0x00, 0x06, 0x00, 0x00, 0x00,
  0x28, 0x00, 0x00, 0x00, 0x34, 0xfe, 0xff, 0xff, 0x1b, 0x00, 0x00, 0x00,
  0x73, 0x65, 0x71, 0x75, 0x65, 0x6e, 0x74, 0x69, 0x61, 0x6c, 0x5f, 0x32,
  0x2f, 0x64, 0x65, 0x6e, 0x73, 0x65, 0x5f, 0x37, 0x2f, 0x4d, 0x61, 0x74,
  0x4d, 0x75, 0x6c, 0x00, 0x02, 0x00, 0x00, 0x00, 0x10, 0x00, 0x00, 0x00,
  0x10, 0x00, 0x00, 0x00, 0x0e, 0xff, 0xff, 0xff, 0x00, 0x00, 0x00, 0x01,
  0x10, 0x00, 0x00, 0x00, 0x10, 0x00, 0x00, 0x00, 0x05, 0x00, 0x00, 0x00,
  0x28, 0x00, 0x00, 0x00, 0x7c, 0xfe, 0xff, 0xff, 0x1b, 0x00, 0x00, 0x00,
  0x73, 0x65, 0x71, 0x75, 0x65, 0x6e, 0x74, 0x69, 0x61, 0x6c, 0x5f, 0x32,
  0x2f, 0x64, 0x65, 0x6e, 0x73, 0x65, 0x5f, 0x36, 0x2f, 0x4d, 0x61, 0x74,
  0x4d, 0x75, 0x6c, 0x00, 0x02, 0x00, 0x00, 0x00, 0x10, 0x00, 0x00, 0x00,
  0x01, 0x00, 0x00, 0x00, 0x56, 0xff, 0xff, 0xff, 0x00, 0x00, 0x00, 0x01,
  0x10, 0x00, 0x00, 0x00, 0x10, 0x00, 0x00, 0x00, 0x04, 0x00, 0x00, 0x00,
  0x38, 0x00, 0x00, 0x00, 0xc4, 0xfe, 0xff, 0xff, 0x2b, 0x00, 0x00, 0x00,
  0x73, 0x65, 0x71, 0x75, 0x65, 0x6e, 0x74, 0x69, 0x61, 0x6c, 0x5f, 0x32,
  0x2f, 0x64, 0x65, 0x6e, 0x73, 0x65, 0x5f, 0x36, 0x2f, 0x42, 0x69, 0x61,
  0x73, 0x41, 0x64, 0x64, 0x2f, 0x52, 0x65, 0x61, 0x64, 0x56, 0x61, 0x72,
  0x69, 0x61, 0x62, 0x6c, 0x65, 0x4f, 0x70, 0x00, 0x01, 0x00, 0x00, 0x00,
  0x10, 0x00, 0x00, 0x00, 0xaa, 0xff, 0xff, 0xff, 0x00, 0x00, 0x00, 0x01,
  0x10, 0x00, 0x00, 0x00, 0x10, 0x00, 0x00, 0x00, 0x03, 0x00, 0x00, 0x00,
  0x38, 0x00, 0x00, 0x00, 0x18, 0xff, 0xff, 0xff, 0x2b, 0x00, 0x00, 0x00,
  0x73, 0x65, 0x71, 0x75, 0x65, 0x6e, 0x74, 0x69, 0x61, 0x6c, 0x5f, 0x32,
  0x2f, 0x64, 0x65, 0x6e, 0x73, 0x65, 0x5f, 0x37, 0x2f, 0x42, 0x69, 0x61,
  0x73, 0x41, 0x64, 0x64, 0x2f, 0x52, 0x65, 0x61, 0x64, 0x56, 0x61, 0x72,
  0x69, 0x61, 0x62, 0x6c, 0x65, 0x4f, 0x70, 0x00, 0x01, 0x00, 0x00, 0x00,
  0x10, 0x00, 0x00, 0x00, 0x00, 0x00, 0x16, 0x00, 0x18, 0x00, 0x14, 0x00,
  0x00, 0x00, 0x10, 0x00, 0x0c, 0x00, 0x08, 0x00, 0x00, 0x00, 0x00, 0x00,
  0x00, 0x00, 0x07, 0x00, 0x16, 0x00, 0x00, 0x00, 0x00, 0x00, 0x00, 0x01,
  0x10, 0x00, 0x00, 0x00, 0x10, 0x00, 0x00, 0x00, 0x02, 0x00, 0x00, 0x00,
  0x38, 0x00, 0x00, 0x00, 0x84, 0xff, 0xff, 0xff, 0x2b, 0x00, 0x00, 0x00,
  0x73, 0x65, 0x71, 0x75, 0x65, 0x6e, 0x74, 0x69, 0x61, 0x6c, 0x5f, 0x32,
  0x2f, 0x64, 0x65, 0x6e, 0x73, 0x65, 0x5f, 0x38, 0x2f, 0x42, 0x69, 0x61,
  0x73, 0x41, 0x64, 0x64, 0x2f, 0x52, 0x65, 0x61, 0x64, 0x56, 0x61, 0x72,
  0x69, 0x61, 0x62, 0x6c, 0x65, 0x4f, 0x70, 0x00, 0x01, 0x00, 0x00, 0x00,
  0x01, 0x00, 0x00, 0x00, 0x00, 0x00, 0x16, 0x00, 0x1c, 0x00, 0x18, 0x00,
  0x00, 0x00, 0x14, 0x00, 0x10, 0x00, 0x0c, 0x00, 0x00, 0x00, 0x00, 0x00,
  0x08, 0x00, 0x07, 0x00, 0x16, 0x00, 0x00, 0x00, 0x00, 0x00, 0x00, 0x01,
  0x14, 0x00, 0x00, 0x00, 0x20, 0x00, 0x00, 0x00, 0x20, 0x00, 0x00, 0x00,
  0x01, 0x00, 0x00, 0x00, 0x3c, 0x00, 0x00, 0x00, 0x02, 0x00, 0x00, 0x00,
  0xff, 0xff, 0xff, 0xff, 0x01, 0x00, 0x00, 0x00, 0x04, 0x00, 0x04, 0x00,
  0x04, 0x00, 0x00, 0x00, 0x1f, 0x00, 0x00, 0x00, 0x73, 0x65, 0x72, 0x76,
  0x69, 0x6e, 0x67, 0x5f, 0x64, 0x65, 0x66, 0x61, 0x75, 0x6c, 0x74, 0x5f,
  0x64, 0x65, 0x6e, 0x73, 0x65, 0x5f, 0x36, 0x5f, 0x69, 0x6e, 0x70, 0x75,
  0x74, 0x3a, 0x30, 0x00, 0x02, 0x00, 0x00, 0x00, 0x01, 0x00, 0x00, 0x00,
  0x01, 0x00, 0x00, 0x00, 0x01, 0x00, 0x00, 0x00, 0x10, 0x00, 0x00, 0x00,
  0x0c, 0x00, 0x0c, 0x00, 0x0b, 0x00, 0x00, 0x00, 0x00, 0x00, 0x04, 0x00,
  0x0c, 0x00, 0x00, 0x00, 0x09, 0x00, 0x00, 0x00, 0x00, 0x00, 0x00, 0x09,
};
unsigned int converted_model_tflite_len = 3192;
